function [Y,Xf,Af] = myNeuralNetworkFunction(X,Xi,~)
%MYNEURALNETWORKFUNCTION neural network simulation function.
%
% Auto-generated by MATLAB, 28-Sep-2021 22:18:09.
%
% [Y,Xf,Af] = myNeuralNetworkFunction(X,Xi,~) takes these arguments:
%
%   X = 1xTS cell, 1 inputs over TS timesteps
%   Each X{1,ts} = 1xQ matrix, input #1 at timestep ts.
%
%   Xi = 1x10 cell 1, initial 10 input delay states.
%   Each Xi{1,ts} = 1xQ matrix, initial states for input #1.
%
%   Ai = 2x0 cell 2, initial 10 layer delay states.
%   Each Ai{1,ts} = 20xQ matrix, initial states for layer #1.
%   Each Ai{2,ts} = 1xQ matrix, initial states for layer #2.
%
% and returns:
%   Y = 1xTS cell of 1 outputs over TS timesteps.
%   Each Y{1,ts} = 1xQ matrix, output #1 at timestep ts.
%
%   Xf = 1x10 cell 1, final 10 input delay states.
%   Each Xf{1,ts} = 1xQ matrix, final states for input #1.
%
%   Af = 2x0 cell 2, final 0 layer delay states.
%   Each Af{1ts} = 20xQ matrix, final states for layer #1.
%   Each Af{2ts} = 1xQ matrix, final states for layer #2.
%
% where Q is number of samples (or series) and TS is the number of timesteps.

%#ok<*RPMT0>

% ===== NEURAL NETWORK CONSTANTS =====

% Input 1
x1_step1.xoffset = 0.626408090743237;
x1_step1.gain = 5.47312376319514;
x1_step1.ymin = -1;

% Layer 1
b1 = [-1.9131544441541552537;1.814327507075710999;1.3553299564832046453;-1.3325231717950651866;1.0219712341803797173;-0.76268057270210209975;0.576904253262384481;0.35585069758491366665;0.54335725283828528731;0.18227137962425823958;0.39168648992815163767;0.43711111983838141226;-0.39179907316036827192;-0.74833704815820101253;-1.0349284928074380385;1.4989022276954200308;1.3682486873482591072;-1.377210216395601039;-1.6806998000660224868;1.3626929296333178954];
IW1_1 = [0.77878450384300035303 -0.60031154855612622878 0.6374040662648735589 0.70133190938470135745 -0.21951494765287354882 -0.40638297221470370824 -0.58144549836695347267 0.43467311639703087867 0.90480621118254933588 0.0611003083264381186;-0.039445606419041358282 0.70557708848635891652 -0.60450224871133184656 0.16241076321001973737 -1.0011678096527054649 -0.0046421590102346463325 -0.44768884826241295283 0.69671167079761864294 0.44599198358019281896 0.77833361592571193022;-1.0095510608239761652 0.59815761720117277545 0.04702143918087246105 -0.044457749824267929484 0.64048089995531187757 -0.78336063796744670462 -1.0031545798142491588 0.74971902860064487673 0.24141482491720045456 0.40119363734546426015;0.72206946965608231892 -0.28795142187684436008 0.40343912551723121185 0.54183342762727149111 -0.65860889334500494208 0.24231878919948990347 -0.28456411699929862191 0.41648429610631698683 -0.88202994598063666487 -0.9285528772663572683;-0.091021036834899524126 0.50414095419145066312 0.10556371993423545319 -1.1174106675569890346 0.56087073750991078835 -0.83858438317197714351 -0.5843482269185492628 -0.18336043370732377222 0.91948230661053476087 -0.3566159563834375712;0.40246774702078447206 0.19960356100450679651 0.19052436776100575844 0.56258339605060359023 0.42505481575650311266 0.8724070869644100501 -0.88566969630195901964 -0.012967921551478125627 -0.81643256816553677613 0.71454739170266001747;-0.96041217699239112005 -0.29118856211772936593 -0.42206642764875135221 -0.090379190489256341912 0.69363242026016092012 -0.65128268845803782838 -0.57260835861637204847 -0.37557834923299904251 0.64963270596507449728 0.78686309000508891653;-0.72236792737557187216 -0.0048615855713993235548 -0.59250851140883631363 0.97516788385259078886 -0.24776589244443286697 0.65429856879013048587 0.25340584386493825164 0.32994491260125097254 -0.7145625123197222317 0.87242397926456527468;-0.78028280105954084256 0.75764140100797927602 0.90771796164853990607 0.18559971232090050064 -0.17000630168862018721 0.49577001387049002279 -0.16128326930101138936 0.84336659826854842859 -0.03559434575203972162 1.1749508890197417621;-0.47368690161702114994 0.54415234316695915151 0.56224596534271376047 0.65441963990822582531 0.4234684818747586621 1.0255832720628592636 1.1201785421529903974 -0.23000755981724163579 -0.54169521166963219283 0.84119031532283461416;0.75203001737572150454 -0.88982844787629833405 0.54988027090377356032 -0.36844503313295690061 -0.57318346173651724129 0.85867768938397781575 0.11080889843569471931 -0.23646933752680271423 -0.15719516654428297708 -0.8155471829111194948;0.3068089805747412635 0.68195842543330653651 -0.76516710169806967379 -0.34417402177398487284 -0.2594736570879259685 0.222064496721263549 -0.83578524242899943086 -0.922241446980969104 -0.22230454642492955553 -0.3146452671659891176;-0.61411375460915929025 0.88206049503199557282 0.57393923660810575171 -0.29174009444558768323 0.46170926382865207227 0.4826193594923473551 -0.60687553834109653206 0.37296175827702687799 0.70425035398376945039 -0.61019469303468309995;-0.9758264983147332261 0.78209065169506108983 -0.018917071372199237289 0.67961054968657552688 0.51646083747399740282 -0.53186007637577981111 -0.86279589738730533277 0.58363818697045821704 -0.060040960142262470023 -0.20460000567547778627;-0.34646360212866844641 0.61901767499072835044 1.1254368040899396242 -0.94895630964532506901 -0.21623772418756587177 0.42083751634308913525 0.29122864336752080083 0.27484041266711217721 -0.31958475535236929854 0.13971965983612150142;0.49266663427973123035 -0.54605479766297571054 1.0438324612968816751 0.95774587871311855913 0.67583478300003996253 0.43202512445721535927 -0.0038445366620339510577 0.71581901329823094393 0.83732377268155222527 0.73460388303957235845;0.1892017525815700707 -0.8826050523481945298 0.6936165300608733153 0.31631446217887998484 0.86352002580883635563 0.69992815032977184764 -0.14678861233752049653 -0.23212911540619746154 -0.47716797983309067188 0.43386666159444853275;-0.71710824734300593342 0.10437542028682604556 -0.43366646275196962801 -0.6801143752233943518 -0.37838088215566995087 -0.48422635116187512372 -0.90435883381271475745 0.79035186791619427282 0.26695983745620310845 0.51493949160695962064;-0.44993802674863581093 0.83338494398664497709 -0.59116977444116058926 0.58122421698802095857 -0.41253205663567393824 0.028842045892555859266 -0.51593636346412996563 -0.74328533592529588692 -0.70272266326187959873 0.72012130102890825611;0.47859635856774929152 0.29237516986342682035 -0.77439784781201426167 0.57899501541517861547 -0.16804566648828508924 0.33272576284444627115 -0.99198851604008742022 -0.67351795239274303562 -0.56249871494030811991 -0.2183657648912001592];

% Layer 2
b2 = 0.64768657816054453491;
LW2_1 = [0.28217474436715639374 0.86127971540970604813 -1.0191260780092963323 0.17912186675948538195 0.75103092853823327779 -0.10790305863351341842 -0.52240548698289213103 0.61312893117292610601 -1.1560404548886402676 0.53491979374811471359 -0.55898867580646327546 0.16652140898617062703 0.40845783163292803675 0.39770023922535180372 0.66705123450283088093 0.41688660172191549513 -0.59445081855426362694 -0.52151877342598973453 -0.20535420461583858698 0.34922068635197822672];

% Output 1
y1_step1.ymin = -1;
y1_step1.gain = 5.47312376319514;
y1_step1.xoffset = 0.626408090743237;

% ===== SIMULATION ========

% Format Input Arguments
isCellX = iscell(X);
if ~isCellX
    X = {X};
end
if (nargin < 2), error('Initial input states Xi argument needed.'); end

% Dimensions
TS = size(X,2); % timesteps
if ~isempty(X)
    Q = size(X{1},2); % samples/series
elseif ~isempty(Xi)
    Q = size(Xi{1},2);
else
    Q = 0;
end

% Input 1 Delay States
Xd1 = cell(1,11);
for ts=1:10
    Xd1{ts} = mapminmax_apply(Xi{1,ts},x1_step1);
end

% Allocate Outputs
Y = cell(1,TS);

% Time loop
for ts=1:TS
    
    % Rotating delay state position
    xdts = mod(ts+9,11)+1;
    
    % Input 1
    Xd1{xdts} = mapminmax_apply(X{1,ts},x1_step1);
    
    % Layer 1
    tapdelay1 = cat(1,Xd1{mod(xdts-[1 2 3 4 5 6 7 8 9 10]-1,11)+1});
    a1 = tansig_apply(repmat(b1,1,Q) + IW1_1*tapdelay1);
    
    % Layer 2
    a2 = repmat(b2,1,Q) + LW2_1*a1;
    
    % Output 1
    Y{1,ts} = mapminmax_reverse(a2,y1_step1);
end

% Final Delay States
finalxts = TS+(1: 10);
xits = finalxts(finalxts<=10);
xts = finalxts(finalxts>10)-10;
Xf = [Xi(:,xits) X(:,xts)];
Af = cell(2,0);

% Format Output Arguments
if ~isCellX
    Y = cell2mat(Y);
end
end

% ===== MODULE FUNCTIONS ========

% Map Minimum and Maximum Input Processing Function
function y = mapminmax_apply(x,settings)
y = bsxfun(@minus,x,settings.xoffset);
y = bsxfun(@times,y,settings.gain);
y = bsxfun(@plus,y,settings.ymin);
end

% Sigmoid Symmetric Transfer Function
function a = tansig_apply(n,~)
a = 2 ./ (1 + exp(-2*n)) - 1;
end

% Map Minimum and Maximum Output Reverse-Processing Function
function x = mapminmax_reverse(y,settings)
x = bsxfun(@minus,y,settings.ymin);
x = bsxfun(@rdivide,x,settings.gain);
x = bsxfun(@plus,x,settings.xoffset);
end
